{
  "version": "1.0",
  "truncation": null,
  "padding": null,
  "added_tokens": [
    {
      "id": 0,
      "content": "<pad>",
      "single_word": false,
      "lstrip": false,
      "rstrip": false,
      "normalized": false,
      "special": true
    },
    {
      "id": 1,
      "content": "<s>",
      "single_word": false,
      "lstrip": false,
      "rstrip": false,
      "normalized": false,
      "special": true
    },
    {
      "id": 2,
      "content": "</s>",
      "single_word": false,
      "lstrip": false,
      "rstrip": false,
      "normalized": false,
      "special": true
    }
  ],
  "normalizer": null,
  "pre_tokenizer": {
    "type": "ByteLevel",
    "add_prefix_space": false,
    "trim_offsets": true,
    "use_regex": true
  },
  "post_processor": {
    "type": "ByteLevel",
    "add_prefix_space": true,
    "trim_offsets": false,
    "use_regex": true
  },
  "decoder": {
    "type": "ByteLevel",
    "add_prefix_space": true,
    "trim_offsets": true,
    "use_regex": true
  },
  "model": {
    "type": "BPE",
    "dropout": null,
    "unk_token": null,
    "continuing_subword_prefix": null,
    "end_of_word_suffix": null,
    "fuse_unk": false,
    "byte_fallback": false,
    "ignore_merges": false,
    "vocab": {
      "<pad>": 0,
      "<s>": 1,
      "</s>": 2,
      "!": 3,
      "\"": 4,
      "#": 5,
      "$": 6,
      "%": 7,
      "&": 8,
      "'": 9,
      "(": 10,
      ")": 11,
      "*": 12,
      "+": 13,
      ",": 14,
      "-": 15,
      ".": 16,
      "/": 17,
      "0": 18,
      "1": 19,
      "2": 20,
      "3": 21,
      "4": 22,
      "5": 23,
      "6": 24,
      "7": 25,
      "8": 26,
      "9": 27,
      ":": 28,
      ";": 29,
      "<": 30,
      "=": 31,
      ">": 32,
      "?": 33,
      "@": 34,
      "A": 35,
      "B": 36,
      "C": 37,
      "D": 38,
      "E": 39,
      "F": 40,
      "G": 41,
      "H": 42,
      "I": 43,
      "J": 44,
      "K": 45,
      "L": 46,
      "M": 47,
      "N": 48,
      "O": 49,
      "P": 50,
      "Q": 51,
      "R": 52,
      "S": 53,
      "T": 54,
      "U": 55,
      "V": 56,
      "W": 57,
      "X": 58,
      "Y": 59,
      "Z": 60,
      "[": 61,
      "\\": 62,
      "]": 63,
      "^": 64,
      "_": 65,
      "`": 66,
      "a": 67,
      "b": 68,
      "c": 69,
      "d": 70,
      "e": 71,
      "f": 72,
      "g": 73,
      "h": 74,
      "i": 75,
      "j": 76,
      "k": 77,
      "l": 78,
      "m": 79,
      "n": 80,
      "o": 81,
      "p": 82,
      "q": 83,
      "r": 84,
      "s": 85,
      "t": 86,
      "u": 87,
      "v": 88,
      "w": 89,
      "x": 90,
      "y": 91,
      "z": 92,
      "{": 93,
      "|": 94,
      "}": 95,
      "~": 96,
      "¡": 97,
      "¢": 98,
      "£": 99,
      "¤": 100,
      "¥": 101,
      "¦": 102,
      "§": 103,
      "¨": 104,
      "©": 105,
      "ª": 106,
      "«": 107,
      "¬": 108,
      "®": 109,
      "¯": 110,
      "°": 111,
      "±": 112,
      "²": 113,
      "³": 114,
      "´": 115,
      "µ": 116,
      "¶": 117,
      "·": 118,
      "¸": 119,
      "¹": 120,
      "º": 121,
      "»": 122,
      "¼": 123,
      "½": 124,
      "¾": 125,
      "¿": 126,
      "À": 127,
      "Á": 128,
      "Â": 129,
      "Ã": 130,
      "Ä": 131,
      "Å": 132,
      "Æ": 133,
      "Ç": 134,
      "È": 135,
      "É": 136,
      "Ê": 137,
      "Ë": 138,
      "Ì": 139,
      "Í": 140,
      "Î": 141,
      "Ï": 142,
      "Ð": 143,
      "Ñ": 144,
      "Ò": 145,
      "Ó": 146,
      "Ô": 147,
      "Õ": 148,
      "Ö": 149,
      "×": 150,
      "Ø": 151,
      "Ù": 152,
      "Ú": 153,
      "Û": 154,
      "Ü": 155,
      "Ý": 156,
      "Þ": 157,
      "ß": 158,
      "à": 159,
      "á": 160,
      "â": 161,
      "ã": 162,
      "ä": 163,
      "å": 164,
      "æ": 165,
      "ç": 166,
      "è": 167,
      "é": 168,
      "ê": 169,
      "ë": 170,
      "ì": 171,
      "í": 172,
      "î": 173,
      "ï": 174,
      "ð": 175,
      "ñ": 176,
      "ò": 177,
      "ó": 178,
      "ô": 179,
      "õ": 180,
      "ö": 181,
      "÷": 182,
      "ø": 183,
      "ù": 184,
      "ú": 185,
      "û": 186,
      "ü": 187,
      "ý": 188,
      "þ": 189,
      "ÿ": 190,
      "Ā": 191,
      "ā": 192,
      "Ă": 193,
      "ă": 194,
      "Ą": 195,
      "ą": 196,
      "Ć": 197,
      "ć": 198,
      "Ĉ": 199,
      "ĉ": 200,
      "Ċ": 201,
      "ċ": 202,
      "Č": 203,
      "č": 204,
      "Ď": 205,
      "ď": 206,
      "Đ": 207,
      "đ": 208,
      "Ē": 209,
      "ē": 210,
      "Ĕ": 211,
      "ĕ": 212,
      "Ė": 213,
      "ė": 214,
      "Ę": 215,
      "ę": 216,
      "Ě": 217,
      "ě": 218,
      "Ĝ": 219,
      "ĝ": 220,
      "Ğ": 221,
      "ğ": 222,
      "Ġ": 223,
      "ġ": 224,
      "Ģ": 225,
      "ģ": 226,
      "Ĥ": 227,
      "ĥ": 228,
      "Ħ": 229,
      "ħ": 230,
      "Ĩ": 231,
      "ĩ": 232,
      "Ī": 233,
      "ī": 234,
      "Ĭ": 235,
      "ĭ": 236,
      "Į": 237,
      "į": 238,
      "İ": 239,
      "ı": 240,
      "Ĳ": 241,
      "ĳ": 242,
      "Ĵ": 243,
      "ĵ": 244,
      "Ķ": 245,
      "ķ": 246,
      "ĸ": 247,
      "Ĺ": 248,
      "ĺ": 249,
      "Ļ": 250,
      "ļ": 251,
      "Ľ": 252,
      "ľ": 253,
      "Ŀ": 254,
      "ŀ": 255,
      "Ł": 256,
      "ł": 257,
      "Ń": 258,
      "he": 259,
      "Ġt": 260,
      "Ġa": 261,
      "Ġs": 262,
      "Ġw": 263,
      "Ġthe": 264,
      "nd": 265,
      "ed": 266,
      "in": 267,
      "Ġb": 268,
      "Ġto": 269,
      "Ġwa": 270,
      "Ġand": 271,
      "Ġh": 272,
      "it": 273,
      "Ġf": 274,
      "re": 275,
      "ou": 276,
      "Ġwas": 277,
      "er": 278,
      "Ġhe": 279,
      "Ġl": 280,
      "Ġc": 281,
      "Ġd": 282,
      "Ġp": 283,
      "Ġm": 284,
      "on": 285,
      "ing": 286,
      "Ġg": 287,
      "ar": 288,
      "ay": 289,
      "om": 290,
      "is": 291,
      "ll": 292,
      "at": 293,
      "id": 294,
      "The": 295,
      "en": 296,
      "im": 297,
      "Ġsa": 298,
      "le": 299,
      "Ġha": 300,
      "Ġo": 301,
      "an": 302,
      "Ġn": 303,
      "Ġit": 304,
      "Ġth": 305,
      "or": 306,
      "ĠS": 307,
      "et": 308,
      "ver": 309,
      "Ġher": 310,
      "ĠH": 311,
      "il": 312,
      "ir": 313,
      "Ġe": 314,
      "ĠThe": 315,
      "Ġin": 316,
      "Ġu": 317,
      "ld": 318,
      "ce": 319,
      "ĠHe": 320,
      "Ġshe": 321,
      "Ġbe": 322,
      "ut": 323,
      "ow": 324,
      "Ġso": 325,
      "ot": 326,
      "ck": 327,
      "On": 328,
      "ĠShe": 329,
      "Ġst": 330,
      "ig": 331,
      "pp": 332,
      "am": 333,
      "Ġof": 334,
      "Ġsaid": 335,
      "very": 336,
      "Ġr": 337,
      "oo": 338,
      "Ġday": 339,
      "st": 340,
      "Ġhis": 341,
      "ith": 342,
      "ked": 343,
      "ke": 344,
      "ri": 345,
      "Ġwith": 346,
      "Ġup": 347,
      "Ġ\"": 348,
      "ve": 349,
      "Ġon": 350,
      "Ġy": 351,
      "Ġpl": 352,
      "Ġthat": 353,
      "ted": 354,
      "itt": 355,
      "Ġhad": 356,
      "ĠI": 357,
      "ould": 358,
      "el": 359,
      "ad": 360,
      "ent": 361,
      "ittle": 362,
      "ime": 363,
      "Ġlittle": 364,
      "my": 365,
      "ĠĊ": 366,
      "ĠT": 367,
      "Ġtime": 368,
      "ound": 369,
      "Ġthere": 370,
      "un": 371,
      "Ġplay": 372,
      "Ġfor": 373,
      "Ġhapp": 374,
      "ily": 375,
      "Ġthey": 376,
      "ch": 377,
      "ly": 378,
      "all": 379,
      "Ġmom": 380,
      "Ġvery": 381,
      "her": 382,
      "Ġyou": 383,
      "out": 384,
      "'s": 385,
      "Ġwe": 386,
      "ĠL": 387,
      "Ġsm": 388,
      "al": 389,
      "es": 390,
      "end": 391,
      "Ġre": 392,
      "Once": 393,
      "Ġne": 394,
      "Ġwh": 395,
      "ht": 396,
      "ome": 397,
      "Ġhappy": 398,
      "ack": 399,
      "se": 400,
      "Ġwan": 401,
      "Ġsh": 402,
      "ĠThey": 403,
      "One": 404,
      "ved": 405,
      "Ġbig": 406,
      "irl": 407,
      "Ġas": 408,
      "riend": 409,
      "Ġfriend": 410,
      "Ġbut": 411,
      "Ġli": 412,
      "Ġgirl": 413,
      "Ġk": 414,
      "Ġan": 415,
      "ec": 416,
      "Ġupon": 417,
      "Ġsaw": 418,
      "ore": 419,
      "'t": 420,
      "ra": 421,
      "ter": 422,
      "ide": 423,
      "ĠJ": 424,
      "Ġex": 425,
      "ĠB": 426,
      "Ġloo": 427,
      "Ġbo": 428,
      "ug": 429,
      "Ġhim": 430,
      "ake": 431,
      "Ġsp": 432,
      "Ġdo": 433,
      "fu": 434,
      "Ġout": 435,
      "round": 436,
      "Ġj": 437,
      "Ġcould": 438,
      "hen": 439,
      "ĠTim": 440,
      "ill": 441,
      "Ġwanted": 442,
      "ĠIt": 443,
      "ard": 444,
      "Ġwere": 445,
      "ĠM": 446,
      "Ġlo": 447,
      "ĠLily": 448,
      "Ġall": 449,
      "way": 450,
      "hing": 451,
      "Ġwent": 452,
      "ic": 453,
      "Ġgo": 454,
      "Ã¢": 455,
      "âĤ": 456,
      "âĤ¬": 457,
      "ind": 458,
      "ain": 459,
      "ur": 460,
      "Ġtoo": 461,
      "one": 462,
      "!\"": 463,
      "hed": 464,
      "ry": 465,
      "ful": 466,
      "Ġse": 467,
      "Ġnam": 468,
      "Ġaround": 469,
      ".\"": 470,
      "Ġat": 471,
      "um": 472,
      "iled": 473,
      "Ġfriends": 474,
      "rom": 475,
      "Ġhel": 476,
      "Ġsmiled": 477,
      "ĠA": 478,
      "Ġhelp": 479,
      "ight": 480,
      "oug": 481,
      "Ġstar": 482,
      "Ġnot": 483,
      "ood": 484,
      "Ġnamed": 485,
      "ark": 486,
      "Ġboy": 487,
      "Ġkn": 488,
      "Ġback": 489,
      "Ġloved": 490,
      "Ġcl": 491,
      "omet": 492,
      "ĠOne": 493,
      "Ġwould": 494,
      "Ġasked": 495,
      "Ġfun": 496,
      "side": 497,
      "ss": 498,
      "get": 499,
      "elt": 500,
      "ited": 501,
      "Ġexc": 502,
      "Ġca": 503,
      "Ġlooked": 504,
      "ure": 505,
      "Ġal": 506,
      "Ġsomet": 507,
      "Ġbir": 508,
      "Ġfelt": 509,
      "Ġfe": 510,
      "ame": 511,
      "ĠTimmy": 512,
      "ie": 513,
      "ree": 514,
      "Ġstarted": 515,
      "Ġbird": 516,
      "ong": 517,
      "ĠE": 518,
      "dd": 519,
      "Ġsomething": 520,
      "ear": 521,
      "king": 522,
      "gether": 523,
      "Ġdid": 524,
      "ro": 525,
      "ick": 526,
      "Ġwor": 527,
      "Ġthem": 528,
      "nt": 529,
      "Ġman": 530,
      "Ġexcited": 531,
      "Ġfa": 532,
      "Ġtogether": 533,
      "op": 534,
      "Ġis": 535,
      "Ġcan": 536,
      "Ġag": 537,
      "ag": 538,
      "Ġsc": 539,
      "pped": 540,
      "?\"": 541,
      "ice": 542,
      "Ġno": 543,
      "pl": 544,
      "Ġhave": 545,
      "Ġthen": 546,
      "Ġhome": 547,
      "ade": 548,
      "ally": 549,
      "Ġaway": 550,
      "Ġmu": 551,
      "own": 552,
      "Ġsome": 553,
      "oud": 554,
      "ab": 555,
      "Ġwhen": 556,
      "Ġfound": 557,
      "Ġevery": 558,
      "Ġdec": 559,
      "Ġro": 560,
      "Ġwal": 561,
      "Ġran": 562,
      "ings": 563,
      "Ġla": 564,
      "Ġmade": 565,
      "Ġnew": 566,
      "ĠW": 567,
      "ep": 568,
      "Ġsee": 569,
      "Ġlike": 570,
      "qu": 571,
      "Ġtheir": 572,
      "if": 573,
      "Ġpark": 574,
      "Ġwho": 575,
      "Ġtoy": 576,
      "Ġagain": 577,
      "Ġme": 578,
      "ought": 579,
      "Ġch": 580,
      "ided": 581,
      "Ġco": 582,
      "Ġdecided": 583,
      "Ġab": 584,
      "Ġbr": 585,
      "Ġwhat": 586,
      "ous": 587,
      "udd": 588,
      "as": 589,
      "Ġgot": 590,
      "Ġfrom": 591,
      "Ġone": 592,
      "ile": 593,
      "Ġbec": 594,
      "Ġsad": 595,
      "ared": 596,
      "Ġold": 597,
      "Ġget": 598,
      "eci": 599,
      "Ġplaying": 600,
      "Ġpr": 601,
      "Ġv": 602,
      "Ġfl": 603,
      "Ġput": 604,
      "ĠBut": 605,
      "Ġmake": 606,
      "ny": 607,
      "ouse": 608,
      "ther": 609,
      "ave": 610,
      "ecial": 611,
      "Ġspecial": 612,
      "ell": 613,
      "udden": 614,
      "hat": 615,
      "Ġlot": 616,
      "Ġother": 617,
      "ways": 618,
      "Ġke": 619,
      "uddenly": 620,
      "Ġbu": 621,
      "Ġthan": 622,
      "ĠEvery": 623,
      "Ġthings": 624,
      "ried": 625,
      "Ġalways": 626,
      "Ġfind": 627,
      "Ġdown": 628,
      "ach": 629,
      "Ġgood": 630,
      "Ġfeel": 631,
      "ust": 632,
      "Ġcame": 633,
      "ew": 634,
      "Ġsw": 635,
      "ue": 636,
      "ĠF": 637,
      "Ġtree": 638,
      "ĠD": 639,
      "ched": 640,
      "Ġdidn": 641,
      "nder": 642,
      "Ġint": 643,
      "ge": 644,
      "Ġhug": 645,
      "fter": 646,
      "Ġcar": 647,
      "Ġknew": 648,
      "Ġthought": 649,
      "Ġexpl": 650,
      "Ġscared": 651,
      "Ġcouldn": 652,
      "Ġabout": 653,
      "Ġpo": 654,
      "ven": 655,
      "Ġbl": 656,
      "ite": 657,
      "ob": 658,
      "fe": 659,
      "Ġoutside": 660,
      "our": 661,
      "Ġle": 662,
      "ĠTom": 663,
      "Ġtook": 664,
      ",\"": 665,
      "Ġtake": 666,
      "ise": 667,
      "ant": 668,
      "Ġcare": 669,
      "Ġsk": 670,
      "reat": 671,
      "lly": 672,
      "Ġsun": 673,
      "Åĵ": 674,
      "Ġgra": 675,
      "Ġmommy": 676,
      "Ġlaug": 677,
      "Ġpa": 678,
      "Ġmuch": 679,
      "Ġare": 680,
      "Ġcat": 681,
      "Ġhow": 682,
      "uc": 683,
      "ma": 684,
      "Ġen": 685,
      "ened": 686,
      "ĠJack": 687,
      "Ġwant": 688,
      "ĠJo": 689,
      "Ġpe": 690,
      "ace": 691,
      "ers": 692,
      "Ġtw": 693,
      "Ġho": 694,
      "Ġnever": 695,
      "Ġmore": 696,
      "Ġinto": 697,
      "ist": 698,
      "Ġmo": 699,
      "hn": 700,
      "ĠÃ¢": 701,
      "uck": 702,
      "ax": 703,
      "vent": 704,
      "Ġover": 705,
      "ion": 706,
      "Ġclo": 707,
      "Ġproud": 708,
      "au": 709,
      "Ġlook": 710,
      "Ġstr": 711,
      "pt": 712,
      "ĠSo": 713,
      "Ġad": 714,
      "Ġliked": 715,
      "Ġany": 716,
      "ret": 717,
      "Ġqu": 718,
      "ning": 719,
      "You": 720,
      "Ġdog": 721,
      "ough": 722,
      "Ġhouse": 723,
      "ned": 724,
      "Ġdad": 725,
      "ause": 726,
      "Ġbea": 727,
      "ish": 728,
      "ive": 729,
      "Ġlots": 730,
      "Ġcall": 731,
      "sel": 732,
      "Ġinside": 733,
      "Ġbecause": 734,
      "by": 735,
      "ty": 736,
      "Ġtold": 737,
      "Ġshow": 738,
      "us": 739,
      "Ġif": 740,
      "Ġta": 741,
      "Ġbeaut": 742,
      "ook": 743,
      "Ġsmall": 744,
      "ged": 745,
      "dy": 746,
      "Ġoff": 747,
      "ntil": 748,
      "Ġgave": 749,
      "ane": 750,
      "Ġheard": 751,
      "oth": 752,
      "oy": 753,
      "Ġthis": 754,
      "Ġplayed": 755,
      "Ġlong": 756,
      "âĤ¬â": 757,
      "Ġlear": 758,
      "ort": 759,
      "Ġuntil": 760,
      "ucy": 761,
      "Ġeven": 762,
      "ild": 763,
      "Ġfo": 764,
      "Ġgard": 765,
      "iful": 766,
      "here": 767,
      "Ġthanked": 768,
      "Ġgarden": 769,
      "Ġwat": 770,
      "Ġmy": 771,
      "Ġbeautiful": 772,
      "Ġjust": 773,
      "Ġball": 774,
      "ump": 775,
      "Ġwater": 776,
      "urp": 777,
      "Ġpick": 778,
      "Ġsky": 779,
      "self": 780,
      "Ġby": 781,
      "Ġeat": 782,
      "ving": 783,
      "Ġtried": 784,
      "Ġend": 785,
      "Lily": 786,
      "Ġknow": 787,
      "Ġcom": 788,
      "ate": 789,
      "ĠBen": 790,
      "ber": 791,
      "Ħ¢": 792,
      "âĤ¬âĦ¢": 793,
      "other": 794,
      "Ġtr": 795,
      "Ġflow": 796,
      "lew": 797,
      "Ġcalled": 798,
      "Ġop": 799,
      "Ġway": 800,
      "When": 801,
      "Ġyour": 802,
      "Ġhand": 803,
      "Ġbest": 804,
      "Ġsl": 805,
      "etter": 806,
      "ĠMax": 807,
      "bb": 808,
      "Ġlaughed": 809,
      "ommy": 810,
      "Ġrun": 811,
      "em": 812,
      "Ġtwo": 813,
      "Ġlived": 814,
      "But": 815,
      "Ġim": 816,
      "Ġexplore": 817,
      "ap": 818,
      "ct": 819,
      "Ġwo": 820,
      "Ġbear": 821,
      "Ġfam": 822,
      "Ġadvent": 823,
      "ank": 824,
      "Ġkept": 825,
      "Ġtry": 826,
      "iz": 827,
      "rent": 828,
      "imal": 829,
      "Ġanimal": 830,
      "Ġfin": 831,
      "able": 832,
      "Ġbra": 833,
      "ady": 834,
      "Ġneed": 835,
      "Ġfast": 836,
      "sed": 837,
      "ĠHis": 838,
      "ĠWhen": 839,
      "ĠHer": 840,
      "igh": 841,
      "Ġtoys": 842,
      "Ġflew": 843,
      "Ġwill": 844,
      "ess": 845,
      "Ġbetter": 846,
      "Ġstay": 847,
      "ĠFrom": 848,
      "ĠLucy": 849,
      "Ġadventure": 850,
      "Ġroom": 851,
      "ĠThen": 852,
      "Ġcu": 853,
      "Ġgr": 854,
      "So": 855,
      "Ġpret": 856,
      "Ġdre": 857,
      "Ġfeeling": 858,
      "urpr": 859,
      "Ġfamily": 860,
      "Ġrem": 861,
      "fore": 862,
      "Ġsurpr": 863,
      "It": 864,
      "ine": 865,
      "olly": 866,
      "Ġjump": 867,
      "Ġits": 868,
      "Ġhugged": 869,
      "Ġboth": 870,
      "Ġfore": 871,
      "Ġcle": 872,
      "Ġbrave": 873,
      "ull": 874,
      "ummy": 875,
      "Ġwalked": 876,
      "Ġche": 877,
      "Ġsoon": 878,
      "Ġar": 879,
      "Ġyear": 880,
      "He": 881,
      "ft": 882,
      "ĠP": 883,
      "Ġkind": 884,
      "Ġfar": 885,
      "Ġfly": 886,
      "ink": 887,
      "Ġcome": 888,
      "iced": 889,
      "Ġhard": 890,
      "Ġor": 891,
      "led": 892,
      "ara": 893,
      "Ġbefore": 894,
      "and": 895,
      "bit": 896,
      "Ġsn": 897,
      "ised": 898,
      "abbit": 899,
      "Ġeveryone": 900,
      "Ġcon": 901,
      "Ġeach": 902,
      "ople": 903,
      "ary": 904,
      "ĠSuddenly": 905,
      "Ġsto": 906,
      "Ġbox": 907,
      "Let": 908,
      "Ġcol": 909,
      "Ġsmile": 910,
      "Ġgl": 911,
      "are": 912,
      "Ġte": 913,
      "Ġstill": 914,
      "ect": 915,
      "Ġow": 916,
      "Ġrabbit": 917,
      "Ġplace": 918,
      "Ġnice": 919,
      "Ġwalking": 920,
      "iny": 921,
      "Yes": 922,
      "Ġimp": 923,
      "Ġanimals": 924,
      "ĠJane": 925,
      "ĠBob": 926,
      "Jo": 927,
      "Ġsafe": 928,
      "maz": 929,
      "ĠC": 930,
      "Ġamaz": 931,
      "gan": 932,
      "ĠSam": 933,
      "Ġgoing": 934,
      "Ġthree": 935,
      "Ġwhile": 936,
      "joy": 937,
      "Ġdel": 938,
      "Ġnoticed": 939,
      "Ġpeople": 940,
      "'m": 941,
      "ied": 942,
      "thing": 943,
      "xt": 944,
      "ĠJohn": 945,
      "illy": 946,
      "eet": 947,
      "ser": 948,
      "Ġmany": 949,
      "Ġdon": 950,
      "Ġdis": 951,
      "Ġstopped": 952,
      "ting": 953,
      "ĠYou": 954,
      "Ġdan": 955,
      "Ġnow": 956,
      "Suddenly": 957,
      "Ġquick": 958,
      "isy": 959,
      "Ġever": 960,
      "ool": 961,
      "Tim": 962,
      "Th": 963,
      "Ġwar": 964,
      "Ġenjoy": 965,
      "ious": 966,
      "ange": 967,
      "Ġun": 968,
      "Ġcareful": 969,
      "What": 970,
      "ies": 971,
      "Ġsay": 972,
      "Ġfi": 973,
      "Ġgreat": 974,
      "Ġstor": 975,
      "Ġlearned": 976,
      "Ġwonder": 977,
      "Ġground": 978,
      "ished": 979,
      "Ġtre": 980,
      "Ġlooking": 981,
      "Ġey": 982,
      "Ġloud": 983,
      "Ġquickly": 984,
      "ip": 985,
      "Ġde": 986,
      "Ġunder": 987,
      "sh": 988,
      "They": 989,
      "ĠAnd": 990,
      "Ġbright": 991,
      "bye": 992,
      "age": 993,
      "Ġkeep": 994,
      "ĠEveryone": 995,
      "Ġforest": 996,
      "Ġwork": 997,
      "aisy": 998,
      "Ġremem": 999,
      "Ġide": 1000,
      "Ġwind": 1001,
      "Ġfood": 1002,
      "ught": 1003,
      "Ġfr": 1004,
      "Ġopened": 1005,
      "Ġma": 1006,
      "Ġtur": 1007,
      "Ġlist": 1008,
      "Ġbegan": 1009,
      "Ġnext": 1010,
      "Ġgoodbye": 1011,
      "ff": 1012,
      "th": 1013,
      "ered": 1014,
      "Ġrepl": 1015,
      "Ġpicked": 1016,
      "That": 1017,
      "Ġthr": 1018,
      "Ġremember": 1019,
      "Ġmor": 1020,
      "Ġchild": 1021,
      "Ġidea": 1022,
      "ase": 1023
    },
    "merges": [
      [
        "h",
        "e"
      ],
      [
        "Ġ",
        "t"
      ],
      [
        "Ġ",
        "a"
      ],
      [
        "Ġ",
        "s"
      ],
      [
        "Ġ",
        "w"
      ],
      [
        "Ġt",
        "he"
      ],
      [
        "n",
        "d"
      ],
      [
        "e",
        "d"
      ],
      [
        "i",
        "n"
      ],
      [
        "Ġ",
        "b"
      ],
      [
        "Ġt",
        "o"
      ],
      [
        "Ġw",
        "a"
      ],
      [
        "Ġa",
        "nd"
      ],
      [
        "Ġ",
        "h"
      ],
      [
        "i",
        "t"
      ],
      [
        "Ġ",
        "f"
      ],
      [
        "r",
        "e"
      ],
      [
        "o",
        "u"
      ],
      [
        "Ġwa",
        "s"
      ],
      [
        "e",
        "r"
      ],
      [
        "Ġ",
        "he"
      ],
      [
        "Ġ",
        "l"
      ],
      [
        "Ġ",
        "c"
      ],
      [
        "Ġ",
        "d"
      ],
      [
        "Ġ",
        "p"
      ],
      [
        "Ġ",
        "m"
      ],
      [
        "o",
        "n"
      ],
      [
        "in",
        "g"
      ],
      [
        "Ġ",
        "g"
      ],
      [
        "a",
        "r"
      ],
      [
        "a",
        "y"
      ],
      [
        "o",
        "m"
      ],
      [
        "i",
        "s"
      ],
      [
        "l",
        "l"
      ],
      [
        "a",
        "t"
      ],
      [
        "i",
        "d"
      ],
      [
        "T",
        "he"
      ],
      [
        "e",
        "n"
      ],
      [
        "i",
        "m"
      ],
      [
        "Ġs",
        "a"
      ],
      [
        "l",
        "e"
      ],
      [
        "Ġh",
        "a"
      ],
      [
        "Ġ",
        "o"
      ],
      [
        "a",
        "n"
      ],
      [
        "Ġ",
        "n"
      ],
      [
        "Ġ",
        "it"
      ],
      [
        "Ġt",
        "h"
      ],
      [
        "o",
        "r"
      ],
      [
        "Ġ",
        "S"
      ],
      [
        "e",
        "t"
      ],
      [
        "v",
        "er"
      ],
      [
        "Ġhe",
        "r"
      ],
      [
        "Ġ",
        "H"
      ],
      [
        "i",
        "l"
      ],
      [
        "i",
        "r"
      ],
      [
        "Ġ",
        "e"
      ],
      [
        "Ġ",
        "The"
      ],
      [
        "Ġ",
        "in"
      ],
      [
        "Ġ",
        "u"
      ],
      [
        "l",
        "d"
      ],
      [
        "c",
        "e"
      ],
      [
        "ĠH",
        "e"
      ],
      [
        "Ġs",
        "he"
      ],
      [
        "Ġb",
        "e"
      ],
      [
        "u",
        "t"
      ],
      [
        "o",
        "w"
      ],
      [
        "Ġs",
        "o"
      ],
      [
        "o",
        "t"
      ],
      [
        "c",
        "k"
      ],
      [
        "O",
        "n"
      ],
      [
        "ĠS",
        "he"
      ],
      [
        "Ġs",
        "t"
      ],
      [
        "i",
        "g"
      ],
      [
        "p",
        "p"
      ],
      [
        "a",
        "m"
      ],
      [
        "Ġo",
        "f"
      ],
      [
        "Ġsa",
        "id"
      ],
      [
        "ver",
        "y"
      ],
      [
        "Ġ",
        "r"
      ],
      [
        "o",
        "o"
      ],
      [
        "Ġd",
        "ay"
      ],
      [
        "s",
        "t"
      ],
      [
        "Ġh",
        "is"
      ],
      [
        "it",
        "h"
      ],
      [
        "k",
        "ed"
      ],
      [
        "k",
        "e"
      ],
      [
        "r",
        "i"
      ],
      [
        "Ġw",
        "ith"
      ],
      [
        "Ġu",
        "p"
      ],
      [
        "Ġ",
        "\""
      ],
      [
        "v",
        "e"
      ],
      [
        "Ġ",
        "on"
      ],
      [
        "Ġ",
        "y"
      ],
      [
        "Ġp",
        "l"
      ],
      [
        "Ġth",
        "at"
      ],
      [
        "t",
        "ed"
      ],
      [
        "it",
        "t"
      ],
      [
        "Ġha",
        "d"
      ],
      [
        "Ġ",
        "I"
      ],
      [
        "ou",
        "ld"
      ],
      [
        "e",
        "l"
      ],
      [
        "a",
        "d"
      ],
      [
        "en",
        "t"
      ],
      [
        "itt",
        "le"
      ],
      [
        "im",
        "e"
      ],
      [
        "Ġl",
        "ittle"
      ],
      [
        "m",
        "y"
      ],
      [
        "Ġ",
        "Ċ"
      ],
      [
        "Ġ",
        "T"
      ],
      [
        "Ġt",
        "ime"
      ],
      [
        "ou",
        "nd"
      ],
      [
        "Ġthe",
        "re"
      ],
      [
        "u",
        "n"
      ],
      [
        "Ġpl",
        "ay"
      ],
      [
        "Ġf",
        "or"
      ],
      [
        "Ġha",
        "pp"
      ],
      [
        "il",
        "y"
      ],
      [
        "Ġthe",
        "y"
      ],
      [
        "c",
        "h"
      ],
      [
        "l",
        "y"
      ],
      [
        "a",
        "ll"
      ],
      [
        "Ġm",
        "om"
      ],
      [
        "Ġ",
        "very"
      ],
      [
        "he",
        "r"
      ],
      [
        "Ġy",
        "ou"
      ],
      [
        "ou",
        "t"
      ],
      [
        "'",
        "s"
      ],
      [
        "Ġw",
        "e"
      ],
      [
        "Ġ",
        "L"
      ],
      [
        "Ġs",
        "m"
      ],
      [
        "a",
        "l"
      ],
      [
        "e",
        "s"
      ],
      [
        "e",
        "nd"
      ],
      [
        "Ġ",
        "re"
      ],
      [
        "On",
        "ce"
      ],
      [
        "Ġn",
        "e"
      ],
      [
        "Ġw",
        "h"
      ],
      [
        "h",
        "t"
      ],
      [
        "om",
        "e"
      ],
      [
        "Ġhapp",
        "y"
      ],
      [
        "a",
        "ck"
      ],
      [
        "s",
        "e"
      ],
      [
        "Ġwa",
        "n"
      ],
      [
        "Ġs",
        "h"
      ],
      [
        "ĠThe",
        "y"
      ],
      [
        "On",
        "e"
      ],
      [
        "v",
        "ed"
      ],
      [
        "Ġb",
        "ig"
      ],
      [
        "ir",
        "l"
      ],
      [
        "Ġa",
        "s"
      ],
      [
        "ri",
        "end"
      ],
      [
        "Ġf",
        "riend"
      ],
      [
        "Ġb",
        "ut"
      ],
      [
        "Ġl",
        "i"
      ],
      [
        "Ġg",
        "irl"
      ],
      [
        "Ġ",
        "k"
      ],
      [
        "Ġa",
        "n"
      ],
      [
        "e",
        "c"
      ],
      [
        "Ġup",
        "on"
      ],
      [
        "Ġsa",
        "w"
      ],
      [
        "o",
        "re"
      ],
      [
        "'",
        "t"
      ],
      [
        "r",
        "a"
      ],
      [
        "t",
        "er"
      ],
      [
        "id",
        "e"
      ],
      [
        "Ġ",
        "J"
      ],
      [
        "Ġe",
        "x"
      ],
      [
        "Ġ",
        "B"
      ],
      [
        "Ġl",
        "oo"
      ],
      [
        "Ġb",
        "o"
      ],
      [
        "u",
        "g"
      ],
      [
        "Ġh",
        "im"
      ],
      [
        "a",
        "ke"
      ],
      [
        "Ġs",
        "p"
      ],
      [
        "Ġd",
        "o"
      ],
      [
        "f",
        "u"
      ],
      [
        "Ġ",
        "out"
      ],
      [
        "r",
        "ound"
      ],
      [
        "Ġ",
        "j"
      ],
      [
        "Ġc",
        "ould"
      ],
      [
        "he",
        "n"
      ],
      [
        "ĠT",
        "im"
      ],
      [
        "i",
        "ll"
      ],
      [
        "Ġwan",
        "ted"
      ],
      [
        "ĠI",
        "t"
      ],
      [
        "ar",
        "d"
      ],
      [
        "Ġwe",
        "re"
      ],
      [
        "Ġ",
        "M"
      ],
      [
        "Ġl",
        "o"
      ],
      [
        "ĠL",
        "ily"
      ],
      [
        "Ġa",
        "ll"
      ],
      [
        "w",
        "ay"
      ],
      [
        "h",
        "ing"
      ],
      [
        "Ġw",
        "ent"
      ],
      [
        "i",
        "c"
      ],
      [
        "Ġg",
        "o"
      ],
      [
        "Ã",
        "¢"
      ],
      [
        "â",
        "Ĥ"
      ],
      [
        "âĤ",
        "¬"
      ],
      [
        "i",
        "nd"
      ],
      [
        "a",
        "in"
      ],
      [
        "u",
        "r"
      ],
      [
        "Ġto",
        "o"
      ],
      [
        "on",
        "e"
      ],
      [
        "!",
        "\""
      ],
      [
        "he",
        "d"
      ],
      [
        "r",
        "y"
      ],
      [
        "fu",
        "l"
      ],
      [
        "Ġs",
        "e"
      ],
      [
        "Ġn",
        "am"
      ],
      [
        "Ġa",
        "round"
      ],
      [
        ".",
        "\""
      ],
      [
        "Ġa",
        "t"
      ],
      [
        "u",
        "m"
      ],
      [
        "il",
        "ed"
      ],
      [
        "Ġfriend",
        "s"
      ],
      [
        "r",
        "om"
      ],
      [
        "Ġhe",
        "l"
      ],
      [
        "Ġsm",
        "iled"
      ],
      [
        "Ġ",
        "A"
      ],
      [
        "Ġhel",
        "p"
      ],
      [
        "ig",
        "ht"
      ],
      [
        "ou",
        "g"
      ],
      [
        "Ġst",
        "ar"
      ],
      [
        "Ġn",
        "ot"
      ],
      [
        "oo",
        "d"
      ],
      [
        "Ġnam",
        "ed"
      ],
      [
        "ar",
        "k"
      ],
      [
        "Ġbo",
        "y"
      ],
      [
        "Ġk",
        "n"
      ],
      [
        "Ġb",
        "ack"
      ],
      [
        "Ġlo",
        "ved"
      ],
      [
        "Ġc",
        "l"
      ],
      [
        "om",
        "et"
      ],
      [
        "Ġ",
        "One"
      ],
      [
        "Ġw",
        "ould"
      ],
      [
        "Ġas",
        "ked"
      ],
      [
        "Ġf",
        "un"
      ],
      [
        "s",
        "ide"
      ],
      [
        "s",
        "s"
      ],
      [
        "g",
        "et"
      ],
      [
        "el",
        "t"
      ],
      [
        "it",
        "ed"
      ],
      [
        "Ġex",
        "c"
      ],
      [
        "Ġc",
        "a"
      ],
      [
        "Ġloo",
        "ked"
      ],
      [
        "u",
        "re"
      ],
      [
        "Ġa",
        "l"
      ],
      [
        "Ġs",
        "omet"
      ],
      [
        "Ġb",
        "ir"
      ],
      [
        "Ġf",
        "elt"
      ],
      [
        "Ġf",
        "e"
      ],
      [
        "am",
        "e"
      ],
      [
        "ĠTim",
        "my"
      ],
      [
        "i",
        "e"
      ],
      [
        "re",
        "e"
      ],
      [
        "Ġstar",
        "ted"
      ],
      [
        "Ġbir",
        "d"
      ],
      [
        "on",
        "g"
      ],
      [
        "Ġ",
        "E"
      ],
      [
        "d",
        "d"
      ],
      [
        "Ġsomet",
        "hing"
      ],
      [
        "e",
        "ar"
      ],
      [
        "k",
        "ing"
      ],
      [
        "get",
        "her"
      ],
      [
        "Ġd",
        "id"
      ],
      [
        "r",
        "o"
      ],
      [
        "i",
        "ck"
      ],
      [
        "Ġw",
        "or"
      ],
      [
        "Ġthe",
        "m"
      ],
      [
        "n",
        "t"
      ],
      [
        "Ġm",
        "an"
      ],
      [
        "Ġexc",
        "ited"
      ],
      [
        "Ġf",
        "a"
      ],
      [
        "Ġto",
        "gether"
      ],
      [
        "o",
        "p"
      ],
      [
        "Ġ",
        "is"
      ],
      [
        "Ġc",
        "an"
      ],
      [
        "Ġa",
        "g"
      ],
      [
        "a",
        "g"
      ],
      [
        "Ġs",
        "c"
      ],
      [
        "pp",
        "ed"
      ],
      [
        "?",
        "\""
      ],
      [
        "i",
        "ce"
      ],
      [
        "Ġn",
        "o"
      ],
      [
        "p",
        "l"
      ],
      [
        "Ġha",
        "ve"
      ],
      [
        "Ġthe",
        "n"
      ],
      [
        "Ġh",
        "ome"
      ],
      [
        "ad",
        "e"
      ],
      [
        "all",
        "y"
      ],
      [
        "Ġa",
        "way"
      ],
      [
        "Ġm",
        "u"
      ],
      [
        "ow",
        "n"
      ],
      [
        "Ġs",
        "ome"
      ],
      [
        "ou",
        "d"
      ],
      [
        "a",
        "b"
      ],
      [
        "Ġw",
        "hen"
      ],
      [
        "Ġf",
        "ound"
      ],
      [
        "Ġe",
        "very"
      ],
      [
        "Ġd",
        "ec"
      ],
      [
        "Ġr",
        "o"
      ],
      [
        "Ġwa",
        "l"
      ],
      [
        "Ġr",
        "an"
      ],
      [
        "ing",
        "s"
      ],
      [
        "Ġl",
        "a"
      ],
      [
        "Ġm",
        "ade"
      ],
      [
        "Ġne",
        "w"
      ],
      [
        "Ġ",
        "W"
      ],
      [
        "e",
        "p"
      ],
      [
        "Ġse",
        "e"
      ],
      [
        "Ġli",
        "ke"
      ],
      [
        "q",
        "u"
      ],
      [
        "Ġthe",
        "ir"
      ],
      [
        "i",
        "f"
      ],
      [
        "Ġp",
        "ark"
      ],
      [
        "Ġwh",
        "o"
      ],
      [
        "Ġto",
        "y"
      ],
      [
        "Ġag",
        "ain"
      ],
      [
        "Ġm",
        "e"
      ],
      [
        "oug",
        "ht"
      ],
      [
        "Ġc",
        "h"
      ],
      [
        "id",
        "ed"
      ],
      [
        "Ġc",
        "o"
      ],
      [
        "Ġdec",
        "ided"
      ],
      [
        "Ġa",
        "b"
      ],
      [
        "Ġb",
        "r"
      ],
      [
        "Ġwh",
        "at"
      ],
      [
        "ou",
        "s"
      ],
      [
        "u",
        "dd"
      ],
      [
        "a",
        "s"
      ],
      [
        "Ġg",
        "ot"
      ],
      [
        "Ġf",
        "rom"
      ],
      [
        "Ġon",
        "e"
      ],
      [
        "i",
        "le"
      ],
      [
        "Ġbe",
        "c"
      ],
      [
        "Ġsa",
        "d"
      ],
      [
        "ar",
        "ed"
      ],
      [
        "Ġo",
        "ld"
      ],
      [
        "Ġg",
        "et"
      ],
      [
        "ec",
        "i"
      ],
      [
        "Ġplay",
        "ing"
      ],
      [
        "Ġp",
        "r"
      ],
      [
        "Ġ",
        "v"
      ],
      [
        "Ġf",
        "l"
      ],
      [
        "Ġp",
        "ut"
      ],
      [
        "ĠB",
        "ut"
      ],
      [
        "Ġm",
        "ake"
      ],
      [
        "n",
        "y"
      ],
      [
        "ou",
        "se"
      ],
      [
        "t",
        "her"
      ],
      [
        "a",
        "ve"
      ],
      [
        "eci",
        "al"
      ],
      [
        "Ġsp",
        "ecial"
      ],
      [
        "e",
        "ll"
      ],
      [
        "udd",
        "en"
      ],
      [
        "h",
        "at"
      ],
      [
        "Ġl",
        "ot"
      ],
      [
        "Ġo",
        "ther"
      ],
      [
        "way",
        "s"
      ],
      [
        "Ġ",
        "ke"
      ],
      [
        "udden",
        "ly"
      ],
      [
        "Ġb",
        "u"
      ],
      [
        "Ġth",
        "an"
      ],
      [
        "ĠE",
        "very"
      ],
      [
        "Ġth",
        "ings"
      ],
      [
        "ri",
        "ed"
      ],
      [
        "Ġal",
        "ways"
      ],
      [
        "Ġf",
        "ind"
      ],
      [
        "Ġd",
        "own"
      ],
      [
        "a",
        "ch"
      ],
      [
        "Ġg",
        "ood"
      ],
      [
        "Ġfe",
        "el"
      ],
      [
        "u",
        "st"
      ],
      [
        "Ġc",
        "ame"
      ],
      [
        "e",
        "w"
      ],
      [
        "Ġs",
        "w"
      ],
      [
        "u",
        "e"
      ],
      [
        "Ġ",
        "F"
      ],
      [
        "Ġt",
        "ree"
      ],
      [
        "Ġ",
        "D"
      ],
      [
        "c",
        "hed"
      ],
      [
        "Ġdid",
        "n"
      ],
      [
        "nd",
        "er"
      ],
      [
        "Ġin",
        "t"
      ],
      [
        "g",
        "e"
      ],
      [
        "Ġh",
        "ug"
      ],
      [
        "f",
        "ter"
      ],
      [
        "Ġc",
        "ar"
      ],
      [
        "Ġkn",
        "ew"
      ],
      [
        "Ġth",
        "ought"
      ],
      [
        "Ġex",
        "pl"
      ],
      [
        "Ġsc",
        "ared"
      ],
      [
        "Ġcould",
        "n"
      ],
      [
        "Ġab",
        "out"
      ],
      [
        "Ġp",
        "o"
      ],
      [
        "v",
        "en"
      ],
      [
        "Ġb",
        "l"
      ],
      [
        "it",
        "e"
      ],
      [
        "o",
        "b"
      ],
      [
        "f",
        "e"
      ],
      [
        "Ġout",
        "side"
      ],
      [
        "ou",
        "r"
      ],
      [
        "Ġl",
        "e"
      ],
      [
        "ĠT",
        "om"
      ],
      [
        "Ġtoo",
        "k"
      ],
      [
        ",",
        "\""
      ],
      [
        "Ġt",
        "ake"
      ],
      [
        "is",
        "e"
      ],
      [
        "an",
        "t"
      ],
      [
        "Ġca",
        "re"
      ],
      [
        "Ġs",
        "k"
      ],
      [
        "re",
        "at"
      ],
      [
        "ll",
        "y"
      ],
      [
        "Ġs",
        "un"
      ],
      [
        "Å",
        "ĵ"
      ],
      [
        "Ġg",
        "ra"
      ],
      [
        "Ġmom",
        "my"
      ],
      [
        "Ġla",
        "ug"
      ],
      [
        "Ġp",
        "a"
      ],
      [
        "Ġmu",
        "ch"
      ],
      [
        "Ġa",
        "re"
      ],
      [
        "Ġc",
        "at"
      ],
      [
        "Ġh",
        "ow"
      ],
      [
        "u",
        "c"
      ],
      [
        "m",
        "a"
      ],
      [
        "Ġ",
        "en"
      ],
      [
        "en",
        "ed"
      ],
      [
        "ĠJ",
        "ack"
      ],
      [
        "Ġwan",
        "t"
      ],
      [
        "ĠJ",
        "o"
      ],
      [
        "Ġp",
        "e"
      ],
      [
        "a",
        "ce"
      ],
      [
        "er",
        "s"
      ],
      [
        "Ġt",
        "w"
      ],
      [
        "Ġh",
        "o"
      ],
      [
        "Ġne",
        "ver"
      ],
      [
        "Ġm",
        "ore"
      ],
      [
        "Ġint",
        "o"
      ],
      [
        "is",
        "t"
      ],
      [
        "Ġm",
        "o"
      ],
      [
        "h",
        "n"
      ],
      [
        "Ġ",
        "Ã¢"
      ],
      [
        "u",
        "ck"
      ],
      [
        "a",
        "x"
      ],
      [
        "v",
        "ent"
      ],
      [
        "Ġo",
        "ver"
      ],
      [
        "i",
        "on"
      ],
      [
        "Ġcl",
        "o"
      ],
      [
        "Ġpr",
        "oud"
      ],
      [
        "a",
        "u"
      ],
      [
        "Ġloo",
        "k"
      ],
      [
        "Ġst",
        "r"
      ],
      [
        "p",
        "t"
      ],
      [
        "ĠS",
        "o"
      ],
      [
        "Ġa",
        "d"
      ],
      [
        "Ġli",
        "ked"
      ],
      [
        "Ġan",
        "y"
      ],
      [
        "re",
        "t"
      ],
      [
        "Ġ",
        "qu"
      ],
      [
        "n",
        "ing"
      ],
      [
        "Y",
        "ou"
      ],
      [
        "Ġdo",
        "g"
      ],
      [
        "oug",
        "h"
      ],
      [
        "Ġh",
        "ouse"
      ],
      [
        "n",
        "ed"
      ],
      [
        "Ġd",
        "ad"
      ],
      [
        "au",
        "se"
      ],
      [
        "Ġbe",
        "a"
      ],
      [
        "is",
        "h"
      ],
      [
        "i",
        "ve"
      ],
      [
        "Ġlot",
        "s"
      ],
      [
        "Ġc",
        "all"
      ],
      [
        "s",
        "el"
      ],
      [
        "Ġin",
        "side"
      ],
      [
        "Ġbec",
        "ause"
      ],
      [
        "b",
        "y"
      ],
      [
        "t",
        "y"
      ],
      [
        "Ġto",
        "ld"
      ],
      [
        "Ġsh",
        "ow"
      ],
      [
        "u",
        "s"
      ],
      [
        "Ġ",
        "if"
      ],
      [
        "Ġt",
        "a"
      ],
      [
        "Ġbea",
        "ut"
      ],
      [
        "oo",
        "k"
      ],
      [
        "Ġsm",
        "all"
      ],
      [
        "g",
        "ed"
      ],
      [
        "d",
        "y"
      ],
      [
        "Ġof",
        "f"
      ],
      [
        "nt",
        "il"
      ],
      [
        "Ġg",
        "ave"
      ],
      [
        "an",
        "e"
      ],
      [
        "Ġhe",
        "ard"
      ],
      [
        "ot",
        "h"
      ],
      [
        "o",
        "y"
      ],
      [
        "Ġth",
        "is"
      ],
      [
        "Ġplay",
        "ed"
      ],
      [
        "Ġl",
        "ong"
      ],
      [
        "âĤ¬",
        "â"
      ],
      [
        "Ġl",
        "ear"
      ],
      [
        "or",
        "t"
      ],
      [
        "Ġu",
        "ntil"
      ],
      [
        "uc",
        "y"
      ],
      [
        "Ġe",
        "ven"
      ],
      [
        "il",
        "d"
      ],
      [
        "Ġf",
        "o"
      ],
      [
        "Ġg",
        "ard"
      ],
      [
        "i",
        "ful"
      ],
      [
        "he",
        "re"
      ],
      [
        "Ġthan",
        "ked"
      ],
      [
        "Ġgard",
        "en"
      ],
      [
        "Ġwa",
        "t"
      ],
      [
        "Ġm",
        "y"
      ],
      [
        "Ġbeaut",
        "iful"
      ],
      [
        "Ġj",
        "ust"
      ],
      [
        "Ġb",
        "all"
      ],
      [
        "um",
        "p"
      ],
      [
        "Ġwa",
        "ter"
      ],
      [
        "ur",
        "p"
      ],
      [
        "Ġp",
        "ick"
      ],
      [
        "Ġsk",
        "y"
      ],
      [
        "sel",
        "f"
      ],
      [
        "Ġb",
        "y"
      ],
      [
        "Ġe",
        "at"
      ],
      [
        "v",
        "ing"
      ],
      [
        "Ġt",
        "ried"
      ],
      [
        "Ġe",
        "nd"
      ],
      [
        "L",
        "ily"
      ],
      [
        "Ġkn",
        "ow"
      ],
      [
        "Ġc",
        "om"
      ],
      [
        "at",
        "e"
      ],
      [
        "ĠB",
        "en"
      ],
      [
        "b",
        "er"
      ],
      [
        "Ħ",
        "¢"
      ],
      [
        "âĤ¬â",
        "Ħ¢"
      ],
      [
        "ot",
        "her"
      ],
      [
        "Ġt",
        "r"
      ],
      [
        "Ġfl",
        "ow"
      ],
      [
        "le",
        "w"
      ],
      [
        "Ġcall",
        "ed"
      ],
      [
        "Ġo",
        "p"
      ],
      [
        "Ġwa",
        "y"
      ],
      [
        "W",
        "hen"
      ],
      [
        "Ġyou",
        "r"
      ],
      [
        "Ġha",
        "nd"
      ],
      [
        "Ġbe",
        "st"
      ],
      [
        "Ġs",
        "l"
      ],
      [
        "et",
        "ter"
      ],
      [
        "ĠM",
        "ax"
      ],
      [
        "b",
        "b"
      ],
      [
        "Ġlaug",
        "hed"
      ],
      [
        "om",
        "my"
      ],
      [
        "Ġr",
        "un"
      ],
      [
        "e",
        "m"
      ],
      [
        "Ġtw",
        "o"
      ],
      [
        "Ġli",
        "ved"
      ],
      [
        "B",
        "ut"
      ],
      [
        "Ġ",
        "im"
      ],
      [
        "Ġexpl",
        "ore"
      ],
      [
        "a",
        "p"
      ],
      [
        "c",
        "t"
      ],
      [
        "Ġw",
        "o"
      ],
      [
        "Ġbe",
        "ar"
      ],
      [
        "Ġf",
        "am"
      ],
      [
        "Ġad",
        "vent"
      ],
      [
        "an",
        "k"
      ],
      [
        "Ġke",
        "pt"
      ],
      [
        "Ġt",
        "ry"
      ],
      [
        "i",
        "z"
      ],
      [
        "re",
        "nt"
      ],
      [
        "im",
        "al"
      ],
      [
        "Ġan",
        "imal"
      ],
      [
        "Ġf",
        "in"
      ],
      [
        "ab",
        "le"
      ],
      [
        "Ġb",
        "ra"
      ],
      [
        "ad",
        "y"
      ],
      [
        "Ġne",
        "ed"
      ],
      [
        "Ġfa",
        "st"
      ],
      [
        "s",
        "ed"
      ],
      [
        "ĠH",
        "is"
      ],
      [
        "ĠW",
        "hen"
      ],
      [
        "ĠH",
        "er"
      ],
      [
        "ig",
        "h"
      ],
      [
        "Ġtoy",
        "s"
      ],
      [
        "Ġf",
        "lew"
      ],
      [
        "Ġw",
        "ill"
      ],
      [
        "es",
        "s"
      ],
      [
        "Ġb",
        "etter"
      ],
      [
        "Ġst",
        "ay"
      ],
      [
        "ĠF",
        "rom"
      ],
      [
        "ĠL",
        "ucy"
      ],
      [
        "Ġadvent",
        "ure"
      ],
      [
        "Ġro",
        "om"
      ],
      [
        "ĠThe",
        "n"
      ],
      [
        "Ġc",
        "u"
      ],
      [
        "Ġg",
        "r"
      ],
      [
        "S",
        "o"
      ],
      [
        "Ġp",
        "ret"
      ],
      [
        "Ġd",
        "re"
      ],
      [
        "Ġfeel",
        "ing"
      ],
      [
        "urp",
        "r"
      ],
      [
        "Ġfam",
        "ily"
      ],
      [
        "Ġre",
        "m"
      ],
      [
        "f",
        "ore"
      ],
      [
        "Ġs",
        "urpr"
      ],
      [
        "I",
        "t"
      ],
      [
        "in",
        "e"
      ],
      [
        "o",
        "lly"
      ],
      [
        "Ġj",
        "ump"
      ],
      [
        "Ġit",
        "s"
      ],
      [
        "Ġhug",
        "ged"
      ],
      [
        "Ġb",
        "oth"
      ],
      [
        "Ġf",
        "ore"
      ],
      [
        "Ġc",
        "le"
      ],
      [
        "Ġbra",
        "ve"
      ],
      [
        "u",
        "ll"
      ],
      [
        "um",
        "my"
      ],
      [
        "Ġwal",
        "ked"
      ],
      [
        "Ġc",
        "he"
      ],
      [
        "Ġso",
        "on"
      ],
      [
        "Ġa",
        "r"
      ],
      [
        "Ġy",
        "ear"
      ],
      [
        "H",
        "e"
      ],
      [
        "f",
        "t"
      ],
      [
        "Ġ",
        "P"
      ],
      [
        "Ġk",
        "ind"
      ],
      [
        "Ġf",
        "ar"
      ],
      [
        "Ġf",
        "ly"
      ],
      [
        "in",
        "k"
      ],
      [
        "Ġc",
        "ome"
      ],
      [
        "ic",
        "ed"
      ],
      [
        "Ġh",
        "ard"
      ],
      [
        "Ġo",
        "r"
      ],
      [
        "l",
        "ed"
      ],
      [
        "ar",
        "a"
      ],
      [
        "Ġbe",
        "fore"
      ],
      [
        "a",
        "nd"
      ],
      [
        "b",
        "it"
      ],
      [
        "Ġs",
        "n"
      ],
      [
        "is",
        "ed"
      ],
      [
        "ab",
        "bit"
      ],
      [
        "Ġevery",
        "one"
      ],
      [
        "Ġc",
        "on"
      ],
      [
        "Ġe",
        "ach"
      ],
      [
        "op",
        "le"
      ],
      [
        "ar",
        "y"
      ],
      [
        "ĠS",
        "uddenly"
      ],
      [
        "Ġst",
        "o"
      ],
      [
        "Ġbo",
        "x"
      ],
      [
        "L",
        "et"
      ],
      [
        "Ġco",
        "l"
      ],
      [
        "Ġsm",
        "ile"
      ],
      [
        "Ġg",
        "l"
      ],
      [
        "a",
        "re"
      ],
      [
        "Ġt",
        "e"
      ],
      [
        "Ġst",
        "ill"
      ],
      [
        "ec",
        "t"
      ],
      [
        "Ġo",
        "w"
      ],
      [
        "Ġr",
        "abbit"
      ],
      [
        "Ġpl",
        "ace"
      ],
      [
        "Ġn",
        "ice"
      ],
      [
        "Ġwal",
        "king"
      ],
      [
        "in",
        "y"
      ],
      [
        "Y",
        "es"
      ],
      [
        "Ġim",
        "p"
      ],
      [
        "Ġanimal",
        "s"
      ],
      [
        "ĠJ",
        "ane"
      ],
      [
        "ĠB",
        "ob"
      ],
      [
        "J",
        "o"
      ],
      [
        "Ġsa",
        "fe"
      ],
      [
        "ma",
        "z"
      ],
      [
        "Ġ",
        "C"
      ],
      [
        "Ġa",
        "maz"
      ],
      [
        "g",
        "an"
      ],
      [
        "ĠS",
        "am"
      ],
      [
        "Ġgo",
        "ing"
      ],
      [
        "Ġth",
        "ree"
      ],
      [
        "Ġwh",
        "ile"
      ],
      [
        "j",
        "oy"
      ],
      [
        "Ġd",
        "el"
      ],
      [
        "Ġnot",
        "iced"
      ],
      [
        "Ġpe",
        "ople"
      ],
      [
        "'",
        "m"
      ],
      [
        "i",
        "ed"
      ],
      [
        "t",
        "hing"
      ],
      [
        "x",
        "t"
      ],
      [
        "ĠJo",
        "hn"
      ],
      [
        "ill",
        "y"
      ],
      [
        "e",
        "et"
      ],
      [
        "s",
        "er"
      ],
      [
        "Ġman",
        "y"
      ],
      [
        "Ġd",
        "on"
      ],
      [
        "Ġd",
        "is"
      ],
      [
        "Ġsto",
        "pped"
      ],
      [
        "t",
        "ing"
      ],
      [
        "Ġ",
        "You"
      ],
      [
        "Ġd",
        "an"
      ],
      [
        "Ġn",
        "ow"
      ],
      [
        "S",
        "uddenly"
      ],
      [
        "Ġqu",
        "ick"
      ],
      [
        "is",
        "y"
      ],
      [
        "Ġe",
        "ver"
      ],
      [
        "oo",
        "l"
      ],
      [
        "T",
        "im"
      ],
      [
        "T",
        "h"
      ],
      [
        "Ġwa",
        "r"
      ],
      [
        "Ġen",
        "joy"
      ],
      [
        "i",
        "ous"
      ],
      [
        "an",
        "ge"
      ],
      [
        "Ġu",
        "n"
      ],
      [
        "Ġcare",
        "ful"
      ],
      [
        "W",
        "hat"
      ],
      [
        "i",
        "es"
      ],
      [
        "Ġs",
        "ay"
      ],
      [
        "Ġf",
        "i"
      ],
      [
        "Ġg",
        "reat"
      ],
      [
        "Ġst",
        "or"
      ],
      [
        "Ġlear",
        "ned"
      ],
      [
        "Ġwo",
        "nder"
      ],
      [
        "Ġg",
        "round"
      ],
      [
        "is",
        "hed"
      ],
      [
        "Ġt",
        "re"
      ],
      [
        "Ġloo",
        "king"
      ],
      [
        "Ġe",
        "y"
      ],
      [
        "Ġl",
        "oud"
      ],
      [
        "Ġquick",
        "ly"
      ],
      [
        "i",
        "p"
      ],
      [
        "Ġd",
        "e"
      ],
      [
        "Ġu",
        "nder"
      ],
      [
        "s",
        "h"
      ],
      [
        "The",
        "y"
      ],
      [
        "ĠA",
        "nd"
      ],
      [
        "Ġbr",
        "ight"
      ],
      [
        "by",
        "e"
      ],
      [
        "ag",
        "e"
      ],
      [
        "Ġke",
        "ep"
      ],
      [
        "ĠEvery",
        "one"
      ],
      [
        "Ġfore",
        "st"
      ],
      [
        "Ġwor",
        "k"
      ],
      [
        "a",
        "isy"
      ],
      [
        "Ġrem",
        "em"
      ],
      [
        "Ġ",
        "ide"
      ],
      [
        "Ġw",
        "ind"
      ],
      [
        "Ġf",
        "ood"
      ],
      [
        "ug",
        "ht"
      ],
      [
        "Ġf",
        "r"
      ],
      [
        "Ġop",
        "ened"
      ],
      [
        "Ġm",
        "a"
      ],
      [
        "Ġt",
        "ur"
      ],
      [
        "Ġl",
        "ist"
      ],
      [
        "Ġbe",
        "gan"
      ],
      [
        "Ġne",
        "xt"
      ],
      [
        "Ġgood",
        "bye"
      ],
      [
        "f",
        "f"
      ],
      [
        "t",
        "h"
      ],
      [
        "er",
        "ed"
      ],
      [
        "Ġre",
        "pl"
      ],
      [
        "Ġpick",
        "ed"
      ],
      [
        "T",
        "hat"
      ],
      [
        "Ġth",
        "r"
      ],
      [
        "Ġremem",
        "ber"
      ],
      [
        "Ġm",
        "or"
      ],
      [
        "Ġch",
        "ild"
      ],
      [
        "Ġide",
        "a"
      ],
      [
        "a",
        "se"
      ]
    ]
  }
}